MEMORY_INITIALIZATION_RADIX=16;
MEMORY_INITIALIZATION_VECTOR=
0F701574C1EF8C708915231A87D88A3C07FC01BC84AF90F40B618520829A186398488E828522865386F50F958FA7856C123D80B280E781FA8C4F13628E9583B08577808D90628D4A85578EF9179F8E6891AD927180E5813F80F404BE2E491601007F888E8C1B0A09009D836E03D69285871E8B2A87CB888687761D0288DF839F
11400FC303DDBF728907949A944305A3077A0009815B856B154696588BED04AE9824848D89C58CCA804702138C8729378D7F93B19205864F82520B078FC081F520D78D6C8DCA9133003F9E87AA0F8919003B04920E6186B50580859F863105AA0F118BFA9181055C885886968D6D8A0C8037851D96678B5A8F821EF9885180FC
0CDC01E491F30380892C9A51838CA50002AB94BC9A438D5F8E328DC8915004478CB80AC810FF8A420ADC029190BB84C9068584C8080B865D06BF8285063F00588AE38EF081590A3F0655847F1ED5825F02E403AB84D591958EA398D5CAD89A11021E010F004388D88ACE94D7832188E5071A85FF80EC86DD0730041D9D5C0763
9426131FB350995680C6938B80300CF8030008F50DB685A4941689641226900CB0C80C1F04AE01B60B7507CB01AE877D838D04820891117E9AD10B8B043B8164966F02EA8D59878810C188A803AC01E506A986BF0EBF01BC061E0CA5B1B6888904CD09CA0169805C05F00B2D05EC8C5A00810F471C3608B7066B829809568366
12F981F2894F0F1089C5A579827EA70402478DE78AE6838A849785508433142A92DE8452048E027F8E1B0CE58BB080BF04CF8B4A878586550FA1805D081B86CB86CD87880F1B8726852601A91ECC877801561B9B8E5C0F61074D9B7E85D3007602CF875C09A6807D920F8AEC8C3383EA8D0C0048950D855786B10948837D016E
0A37906B05E52C6F8AC40D618D729B0D01738FD29E038C4803CD96E486C600DE916089BF023C915881318BDE99E708178229872502C38664023B02EF868F853789698A668CFB043B0F698A3A8DE184C501AA030500A99740A48B9D8F97F316BB07B1863E92AA03098F4EA14283E6A3118B838D0B07DD8D3A806F86FFA18709AD
85038C46013D8C2088E40FA58B83925E07B38A748C780D6C02A6808491A70211847A80338D3889C8002D857382A6092713638C218E1A01BE998A8D8A82080A71002890F009758C370AA1884107028969824B1D558FB700EE814F993981B09626009D8538829D839E8CE092F3965981FA90D5881799699925961F03C590AF8727
06808434094C83008CE8867B80DEA4868051929992B08AEB966301F7080E80FF95DC84A5073A85D08C6F85B099B50329041C069701A487C812A9093007F98946000F87EB81178050030A8815077F808C8CC30FFD8BA081F0836EA218010202D911898998016403EF89D58B76878B97508827829886FA8DCB8730037D97388538
1260068A9552260F90BB132E0509860812B38B6388948EEF9DEE1AAA118803DB09770780802304E800730178850684CC152C828F03748099BD3F086287E402B9CC6B074596108BB2035909C92B17896E974B9BBF05CB09E2814A8399B7EA9D89823A89F0003F809E03188790871083CD895B026E89089497055512DA8894066A
109801078A7409988922968492FD9B7704D3870E8C5C068287A987EA850104B7989F87978B9E863B88C707589389027A182C86908E0882DC0D3801E1881402C216EA8B860B688B1E05AE98E113C58550814E1DC08E96096901649F9F26C70CED055C817481D707E88CBA86A78FAA94C792B786B991DB8E318E6B03598791823C
49A043503020902088C5A3F32ADB84FB2D182B23944906EC968A0A69403ECB7A45E3876B85E5073B1D369F88172810FADCD718560FABA795AE2A86F2E187DDCC98F588C482D0FFFF0F5A2262A135C5923912CF758916EB178A93BF2999092F3782479E011C0439D4D23A8E98BEB501ED84193319196F23189C83D1AC0713477E
192603DE17601E608E7F00AE8F7B8B350BF98C5500F3078988E115748FB386650A1686AA8B7984E7020C81258FC411A2805D022F90C685A782190A88882003628097821181538E3502DD94DC0F838E5E06BB21588C9B83770AA19A1E032C81C8827689AA83AF1065883500548534824A8B548785870891118C330CA69BA3855E
B6B845F904970D36184201AE118710230EB20DC68A81947600B799B225A8986B1FF185F484BAA249387901BC1AFB865B852D87B312D58515104C03A0E9A6DDFC9827AE5E28ABBBA4425F99FA9665A8AE90D4BDB837CFAB0006AB31348CD4A3F505ECDB44022B3DDE9AAE02A0038E123D9D612812367342FCFB1291880129772E
AEA101EAB5691A3F025A1876043F10D402D60235104905AE89C40E6F0ACB967595CA1B9E07F980FE139E07FB01ED855580C0087309DF1064A28E127E069401C9A49A07DA837909120E358169186A0C148AE785050AA9027B8E8B8150B955A4F50B8B0930087B86220DF6134F10BD018E0A1D0231184E015C850680FD09FE0244
A8090DCD97BE94E9041107022FD7039B0BF52ECF87AA05A40A76062200A291C7A1E5083A05790AAF2B540C6186168A878CC41E3D87458625115A910D85840E6F862E13362263B36425BA02E300E38F17B64198B581DA82DC04F0391989EA089011B3897584638ADB9F84860F0A8A10A7A2DB85ED1A5910F091F382331BD00617
AB0710C5100E81D8980A101C0A5B8C1C263F9F040C1584802298942B175AA207978585220D5727B312C290E725F38452105B3871830B897F000912D62BAB3111846004C815023AD699D10299813E08DB8650AA2E01EF0A0F13F3555003B28F270B7D93F822520343027720608ADF23289A4019FE1F2D0112852E0113041C15BD
9D6F04B4920CA66F888588E309DD018613C017AE886D181D8D65860E863C89BA8C4F18F3050515B0171122E811C2995501B904C2001C900480D798468F6310E980C30EA103F589F923A703868439808A9D2C078C03F91FE912FD005522E11A0C02D80A569B5580E79105823617B61ABE052F07A619EB86E79BAF87670AD1ADFF
02949E4F81DF833698C008AC8F1EA9DA2CF8AD1600258EB593F78C7B06D71EB6A0D88C9A8F142A4682EF0BC30D269A338E95208294E0B48C89BF090819F23E3F171695CC11C6283BAF25059F96EF924B848BA9069CF09F69916A20C482380B688076922184EE0975A31D0180923F06DE068C084B1D9A06BA18AF96140962B241
8DCA8F749C05BEB410778CD38567164705C911249517122D90EA936A91E60E5A96DC146883C6073A10190B11819D01228278899482E184C1877380100E18234982BB16E901CB02DC03FC043908170794024F066C86790DB006EC90A0156B0F2B1034112C8E2D84B6895701980C510CD414789E1E89408C048451869F033B9F07
9471A7859038116D8ACE82AA9B3C91F01F13990709CC1945A0928A18A87334E29792817789224EF59C99125A08C801CDA48F0DA18B91999988021EA5348761CF0E6F847A080E0A20D95F0B1F847406E844088B15BE2E8B8590E8A1F68055062881560F2980602889A6B411FF01BF8FFB864F0DF981F70AEE442187390A65D490
227900C387FE9B6D131688CE81D10A9C82D70AED9DF7058C841F076B04E00839880005A58B1592B91256811B81A589C7902298E700F18F578AE691AF00FB03868CD8095E8F600C7F0D5D8E440B1706A181BA08DA0A5101DE82EE90B0092812C4827F067690F2839F94EE8DC200F9811583C3920884D8020986408C7985E9034C
84428034946926C38F7313B610C1811992B58029035E1D879466000998951D3181A416BB88644DAC8BD8253180C39678AD750A3D95C19918097D174B15383C87016017D80C890570BB18A3AA139B07260D37059FB73087AF01AD8E170D32871C998C0ADBA4F415FFA5330AB7167185461B9B1FEC078313792FF300CA05E9C7E5
080B00C7970DA30704BA877800409588041F0166987788CF865C92B604F685BF8D3D82A2093E009C04D987BF8395849105C801D181878A9804C7096C031880DF84EB810E85AF0CED08C68B9A03C403D882B20FAF8597009802B9924789551545003508D084C388F18D6690BE805583F787FA82588A11828186DB040090E08014
A64D1375A7AC188A87BF83B41B7389191AA381F8053F00380AB6872D0FB71748085006258C9B0DAA006014320E2302B78D1F16438A91079014C00CB30103305402049EFB2068073DB6D08A668F699BED8F5D8463C621905F027684EC1E2AA68D84D106319B3481FB8B1E84FA1F8E9B1A89DD873713BD0B0A0C6D0F3A00AEAB4F
1BCB0FDE0F2CA912005C96088413858D03F106FD8F7903769E03841D294B82AB04B5831A087A086A8D428B4B83F711A2030F0AC182B28D400809886780A481620795890288F786588676802282A802680AE00DC18BB3813D02BA8D18A76B42F08222069D075603F88F5686428E0080E7910C06DE8803841186EB08C086708081
9716128E979725F60F4D07F650C106F7151F8924823D8518A2D5069F89A020A30BB20F95066F1A618BE4082024620AC31B2F1E35087613340E009E3E106A3EC8872186D594610989ADEF121603188F92B6A3139EC6558DF6158B1E0423BEA58D916A150B016D85A518DA8C1B2C1606258257111D84EB199B1AEE054088FBA099
0ED101B2251D927D87990ADE91C2903A04280494893D85040454813A0B4410B1091A001500A483B98355810B90E5138B012E844A87EC84E380A5961F81A100940721869987B08CBD01300D2A80A002DE9196121585CB007209CB90F484D518F8885A80A50480802693798D778A3E86AC919C099590E28EB1024305848335898A
8394012DAF050D69875681C128340950269A0C3F02B603C18E6B85F304FF12F9861F02E611A634BE8F6F81D414B80F011F39806905A214160E6687C0840919650DE9864C81CD1E02AB220DA98933945CAD83223FBC1586CF19542C0915408C0003C1123800E586A00BCA917612310D0D81948B00206F03C908CC029E0123D3AE
86C402329A8E172800DF0AEC82A284EF01B607C9805583B5856985C103C10284014180A000BA00BE8549028A844801BC038B8D7701330ACF8CE883E7039B084D001E810D85C880380DEC024B022E807B00B202AE87CC081E0CDE83848A68860C058B80C40680051C82BC0219061B038E82A104B1821585CB026401D6017E85CA
1F8A83F393E8837006CC0542136C09542362862900C7809286CD095A8689123D8688081004C9202E88BB132E1CC283000A7E8B2C0A0A00098D2989211BE02EB08A8F0B0D94D300568CE204360AC5075BA50116C3B3938D3E0D811DA310668D2991AE12CF0F0B970C073408800CD20D0A01B2989503EF09FC15C40104843AC325
82B6852B89F21E0988430131829A029002AE878C84A482B806D805480C3780C8815C0A8806D481E308A2042C008C10D204CB02A704FD02C786DD02510A7A05E68BA7074682D582F10A1781AA06CD0137042E85880AF802C2007286A8846F074404EC08B7079A0B6280B28291012C09A083280ED3014D831B0349010E0FB0050A
0F71887A8D988F9206DE006B103918F08F3C897C86B6095E89AC8530848C234A8C2C1D3F862609B38B81245A17238E700290060B04B40D568BCE9787104F21B98DEF82CD8D79069F9A9F89EE0E420C97A7AD2483911182191A3E91160ADC9A16A185083888FB880C012C862D1374853B26F68617930211BC0AAF8DA28158C32F
016083531350138083E79EF108048559068D815D848604A4938A823F04DA03BC0B1708DA08B008220B5805DE82F40E3482F2874705BA0840944C0324088981C48C0E046E008D80240CA80693051103C50610860C00F601B5098581B692090D708040020D07CF0854019A01240143069401C30FF104D784D2842E035D11CD8F86
15290EC501A99AEF0A3393CF2A94254B0A4108EE00660A80949D0526049F055B8ADD066F068516CC8A20181C10B70AA78722055E009582A68D089A7724F91BCC0878057995DB88FF9663278708B11080934818F89F2883EA1C7608BE02540D169DAE0C0C123D0C2C95CD0FA60BA50D56064F126C97F6094523020ECE07CCA8AF
8A68820A08EE066981BB90FB0BF3006001D080B307A8052188668E3F015E884C0DFD0E7D0AF2064E15B381E2000E0ADA8A5F80F5092B110D9FE10CBC034803AA8A3B013490E082C60D0A08068271004B02D78B870018058F05DB80C4A07E882903BF084A0692078D052000BC051983EB821A07450DCB832882F6831D0A9988D4
16E612D08075A28A81E405CC332A135E08D11DA98627116C8D420B5D10958302823D141503A109558261186B112886548D3027BA92208711872789E811E305DF0F5C18D593879A8A9E9323E202E20D5E9F8B10878A270A8D13B1833109EA0C939E0321E80B2201928C8C0C050E6E1ADB0C1F1AD88A13124C21CB0B3B03C1960B
95F212E4A6C58F5B0C0D99450EB907A3805609B70AC401FCA273968E89CB9170969217E21A67098F1ACD0DB207D88856890F84801306103893301C7513DC0B3807170401832B047D12D1002A03460652079A052B098608B5021212858847847306630CB40E7C830E102C08D803E50B740EB60B811E0B0BD083E28C36141888EA
0B5715C412FD9E0501B184A4283F0FB00370214486DF0896A03B83EC8520894503981F5505AE01B68127861C08F180BC017A0B878A32910080F991478DA48D6286D50C3C890391D8084D15D001650361A71603B703AE87E31A60867B041F0F399473112C113706EE9A0D90901140807403E91E8B8AA88C048AA78E6581F80366
02523BFB1BC40F618452130C50FC09CC15CA0A1AA9EF26A1096D9175C6460D601D4483DB2C2E886307358734307A96680A7645490655067C229F11BD15630E13A2D937A922C02D7D8F4F0CD4024B0B920818219895843024113A9E0B01108AEF002A38BA38FA833C0D49836B23EA129A00C42C928B9D3830415803AD87069F41
145408139448874C0D268C96870B007101D8068C8E6E0183970C061E9AC706BD0AF587BD919C89770D588A2488060152036788F581BE84AC23568D5787F6813E03BD004D8B818624087D8C2B8C9881C78FBF8BBA0183946F04160E7E00BD86F181BB071392A988CE8C2A8F30121E09F0827E8BE5862C8D38928C8C879B80167B
0B8B12B99132836C88B5005909110D4B0450136F929780278B0E93F1018715A013A10FED1C920BD906A5858B1E7C017B120B23868452092811D1006011FD2564142D10CD94CD1696A99C83DB02CC015C007E0CE8A66D00D61A0C04F405EF827B0E541AC2847088E70CFE033A0C3F244904271C9A8C95248C21B285C68DDD829F
1436943B0038A0AE083985C499A40A8488248C8197D7842D8592003213508E7700910094875F92290B8C8F018FA2010D8720916981358FF60EBE9C988CDB802A071886208A8184E10B438CF7898E094E8DD7892B8755926F805F0E1F01170C10821A83C8987A8A99989C9D6306AF06E990FE8AB2013D93189D7F8D46954709B4
0B020BBA88218F0308CB03C41525149A8B4E03AA869E891C08888A74999B236C04A812E71252865D03A0841A1C590F0100E708E9801706A305878E6623561810198B33EE926319D1BBFB0A6584D9085580868210885F814F177F233B868D92A4850C188F80F106640B6F037204B626F08D34293D9845269722D08563013B840B
0AE98C870E5F85190424821B808A8DCF88339055A0548D010A11032B86F103618576801B05E28483860F805A9016013D8598802303028EC90815882C82518001879D011F896505220354921D0694070A8BDA819302248E8D880689C303C10C17843183028D6B8D7F95A192038795025F8A9E8A488A08845E0088841B977E06CF
8B008769004B03918B2D0DB73FCE019308040D2A9596010310730CD09CF30A5D876189981657246110B584461DE390AB932D127C065B8B12156091B7266A334202161D4B01AE12D79FF08D5D83170AB78AC90FFF9BE7051F05211CF60BA4983E992715918C42049E83F101D516EB33B18A9D266D9647172A3B24882780179146
12DC04F50AE296B286DD9151888E97A0845C852E9C5982F2013584828140039E85898077069A86FB876A8A2B8956037200E8052888F691EC076503018337855884F48165853D0408023005100AD2810A8B5682A788DC850282969262843211A8815A07D6880F81FE94139494893001E88F6F00DC8F51851E85F6863C8FA60769
8139137903560D6C902311A733DC0C1A2FE005FE9445053A91C722A29A2010DA0FAC9AF6035E49C81CA204882A35B0A3B4021C2A8D589A829C348804269B253D89C01C5F8F8B129684359057862E0EBB095407B082D781B80D0398E680C6993F99BD0C5F81720C6996968CF1106C206398F6835BA0B51F734CC699FC1115A280
189083EF08AF94888958827187D39711025782238C84819D806000FF8B640B100251817E86B4858E837A805786B90234851A805988B286DC097880F185CC004880B9803681658037031D821C0447852086380E8184D901C502F9992518780BF7005283DF8824090C93068CC78C63845F88C6801392188CCE86E505E887B107D1
0BE9902F049011048D4005903D3A0BE5256F8E6F879B101606801BE78D4118E1863E8007828935CC008C11530AACAA419CB783A888739F0E98F10B0A4194492701432A6A0D75082B9C3602080042194B84F980150ACF0A7302889AE90D9E96C98DE5091A87A200578FAF0C11000B04E580978EFF9445074843FD928207F69F56
03A184C9037E835C860602F7810002888365002B83B100EE823B8143070E8110820C06C2042F02AB041C073702AC828B00E4854D0737078E85020D9780B581DB86AB04B384F3039907F885E8079D838A032C81A8848E80350332016780DF02DE04E404E183050521840C80CD076F0465072A03CB807883D20185028982870689
96AB9C0C933AA54F03251765239F0CD539B290059E3116BA1B9883C0A0D5154D056308330E543962977D8D50114F8564995A278D0C62052013E211343F08258E082B1CF3125E0CB8C64D82D5021B1D641CDE148484E40B128B148C1C8559959B0B900DBD80DD846319580C228274194500C92F238C5E27E61A3A0DC30DA79282
8D7782140BAE84D082F903C784EF80AB04BA081B0287807880BF821E00CB038C00E603DE8169802707E4035F01D980BA800C09C280F106C2874D02B60061003884A881CA80BD02C502C601B8828E01FD05E805C8866480AD82DF83FB84C5857007AE04BF835B847080AF849B0411027C044E039302FD01FE05C7809C84AA0239
93E42BD98020944A83490DEE30FE0926426C151290EF1CB31DD700289633878B26D715EA11663D58A5CE92EE38821C7684EF39A400441C1E29D315A50BE91FEE164001B8218807A0FFFF1D7603B0843917921A5F8F7B08C388D71C6E891F85B90C0B29D3910F148C3EAE257A14C1294C0D061C0888BD2C902E18227B94EE00B3
059E087F0D630688809583688224864000BC0648834A83A30714805A06CA051C0AD507228020813581A104F381850415859285D403FE0513876C8216822C801B8B7B07C1057E0352080D07BC02FD852001EC83B0816B81B1000A8005866C808C02C780CE0061820286658256812C048E08A0077603A2015A805F836101460314
93601FBA0DB8025187A1167A1CEF82024DFBA2E504B2178F1B4E140DA54B94A60E3A8271873166DDCBA5042834FF123C8E1D5C0A0D37060D17C6167F0FC200C505570852275A18A5FFFF1271815D03E716BA8AF8209B048382E91537860F905B8B8724E9810784B427CD2FF71CE9372705A41ACD0A872DEF0C6C24B09EBE1895
8C4783AA80D1953B82BB074F005E829081B702E68154824E025B8151043E02B3848C04C500BA82E1044906E18065038380D50771005B082381440D1B81B081738390028401E0057F05F580A90B26816E0876809483C882F783618141911181D704C8833C806404A781CC816A034807440737826102A102900547005D04C3816A
8886020710541E338D7812C696BC93AD82318CA314FB9ABA2AF705699C319CA0863A96DFA58C959CD192A051201622A7853527848C4106EA037127B294268D4A014B2696344D18FFFFFF0A8F049296BE3B9396710DA7A6D6A27C081CA7588745007F381C021003E232922D7E2F5601A0957D1FE5805427EB1F1E89E88E444732
851482E58226032F82828984056D826F00F98276808C00528FEC877F027284FC84A10345849980B782098122047F00A6800282F00426833F89AF03DF0378058E08BB822285F50805078881AB811B839F0658049D834B819689D105E08104813A05D9002E0463025003A404EA83078759046F823A05BF807984A2053584A28080
867D028A0A7987710761807512CA05FB28BA889D0FB710212A4388B9992F887A08F908F0015B45A0DEC40AF911341621025920F8067614DA180A30D3804705CF8D2B112E227D1781FFFF07EA0C4E8421139A970183250B529845865D8171082D0A39117028CD142D3F904DBE9AB91045909A0B8D803E116298E2004E0A3B2856
8125867782A51A9302878DBE045E03B203220124026C82C68B45827C0181810C067D0A4A8087042806BD05B18522006A000A00CF01EA80D684B8813A04ED024282700272026E0943016A84B9021B0118826D0290820802DE86800654095C85950622023B04680221023502E20257000004C9811308128478821F015D00430153
8C16039C858901501A0912AD205206721E9508E9025A043016D487289D4F1936174A88BF04E32A3FA7D485DA277019200AAB4F29141415B605170B92425D4FB304AC102E19FD2FB7FFFF05E7073208A802DB82509198186582AA012A035382AA11C2358A205F0AB6301B18C7153D899B179919FF0A3F24301CE90A900B911FB7
09D8809207A9013C835A8B0C001C819D80CC0225012382A690CC828E04B882578310016A027903C3094B00F08049054880B3007C01A08148827A026E01D203BE046D8567041E818A0629859C0DC7034F05DF0477010900248B4A02528705011D0C16805902D2806685E782398110013A01B6806C0BA488FB885F0019010E85CD
A02A06730D1796E007291274274404F23388A39E8481866423DA949DAB9C182614CF9D9F01DF3A5B930496FF175A307F12C443C60CCF11B334B016FF29F84CF20C64021726EC3219FFFF0910890E82C180C4A0A2BC4481308D6F157995A386AF0FBA47BC280913251AEA34AE16908E8B89B495BE064A19748ABB182301D93B01
86AE84E989C680AF823706D984BE0072819601168003842006ED875706BC012601A90A9703AF83F080AB0048059B015505B2043D003E80BD01750A2F0549031504D802B88122811D067F8485811D00FB01728228843D843A84EC00278070828F0792837B00700292814882C98333828C05478333066784F285CB0484804D8399
83BE87C0861403C00045919D241B81B82E72827C07CF83600E6307E695FD25821F6F85EB80366041BA9D00A2083417CA828122F20A2C0CE2199C187D161A1C1B04EB8F560C4534CCFFFF0D7282A19242841F90AF128F036903771FA202C515C4903689AE2DA32CA1204C193927B10B4D869D13151198100D963616B317BF0B82
9201882181CB02DE8187128901FC81EB8205827582C084E40E2C024F0321042601C40405838B863C0B7305D782F1847A023D0663844E81A18476055E01F805B382D5043F01FB01F90A7C865704648239042F022E00CA841283DF043C04158122049A82E685B782CB0140833F858C0677099E033C068E843184938341002180BA
0EB30F418236082387038D99991B9BD813130B7D060C898F2E9E1B8A83290D6F297E902F98882D5EA785A6AE0AF88216808F32768FCA114A1C910678198B46440F568CCF143C3C0FFFFF269B9677BD173764A90D85AC947D8EDB3E8A1038030200D61A8F0A700FFA2AC007CF0F750218A087186D217216C508378B360A4920E6
8DB28773842F132B88A70783024300DE02EC03B7020F80FA08ED878E044D829C85390188839C828B08A7809D007880C8017F001E81D2043A8149070005BD809C077A837B030B0095036982290CCF823E0674013600DA828883F9040B09830048075506A501FE059E033D829F065782E806DC02310BF181CB83DA0577833D03A3
B2C416DFB0FB021B1D0C94F9237197DA11980AD2983F92B91C2086969656264429D58E0C111A2BC9089A95BF1A140D820FA54491861D1B4F1FD20A94054F30F8243508C903D70AA9FFFF0FC48ED9A4300732A7BEBF338CF79B1E170F0DB986F91073443A3E1D01CA1ECF8D94250A990C8335061F1CB602C4127B1DF10D6B1FC5
00CE00E0833088DF841981DA841703DB8210012E00538467803287A00382877F80FA0876824484CC0897825A0396816A00A6014402210250861B051A01C5828D023F05CE036D038006C18A8E086F855E078C060A01A2821B8564067281118289074B836C026681CA02320097024B019307158036040B00F8842B04030079823B
94761CF18BD0930C14C091641F3B95C13758132F8A4C8D1615148083987C15A30D539E6483894721870CADC30E78109A00B52E5D81100F2E0ED192960EC929EB0F7AA12294000985FFFF05D285769ECC080D8227827696EC9CD2087C0F109EF00FC829ED3E3F981329DDAD3F0D0885AB16C6093B0F110F2F013619DF16492906
8B8084B20C078CD186BA131D879A81F303FC80BC00058406093C819800E68315027300B9839B8187818080020671008F823D047D015D019A88E1081304B704C982980104036600FE048885CC1488845907FA06400243866102D1047D9585042C051B878384E083C4826D00D4022780EE037A80DB08B1007E813404FF86FD8477
9BC5A03214DC8B870F7F0F9D09178FB624CF0A4D93F780FD21FC0255913524FF162A85A00CBB2DBF8C7A8E75302C0BED18773A6A00A51D0C818D08270AB52858171F98B9A452299ADF649AA905748A2504138658906489618BD8943282759C1C8D9438C62B779AC527CC978C285592AD17E4899E808811818BE12AE4166D2779
09B801CB04D388A284F506590116031C8112062E05E481938F6501FB09EF868D004C0199816783D5046E82F7007D04BF057383C58165822F881A05D901C204AD0BDC878404F384C5029301D70A6A810C09FB05AD805488D5822900DA9F50071B0B14878C8490805485D3809A832505370376009307DC89C2015004BD02068189
BB330E5600FE9C970FA484F003DC874C09961A238FE783D90466882681D40DA208D2022A890726BE87AB9D0F0F431E6106D93E8896BC05A7861D186E0F2780291C028D729D9F0F40FFFF98968B308FDB1D3BA7009275870A9C1E8F2309E18FC012F335C43BC49B8A0D8D82FC1B67B0692B81038C15D281080BF211EF050F40A8
84A9804291648743848D025A87D404D106350046042705E606F088E2061A8324816B05B3826B04B50541834D8420804801A5849E04F10664871209F8823F050F04F1054502D280CC046C8A6F07050337089B02A881808172060A01CE9C440BEB0864816781D601AC80BF01DB0012056E06460245081685D7843B066583368556
9CAE19C71174A6011BBC0C221B2483E23571251EA5970E182B94A4B8897612D61CAE07FA07D74D0DA4599CEB03A32A200B25214504CD19FC07A93BE11AAA199226D518500A0609ECFFFF037202D48420246C05BA0140815886A6A9009A3490241FE338CA28A4909611FA1F8D1632A7A7341E0644023A01BD24A721420EEC0C05
818E026403B30B19808B0A53037300ED060A015282AE81EE866291BB005A827784F701B881DD001706D6806E874A0D9080738BB104FE04C985BE0A170106000D83D585B304CE853C01D184AE0BD401F3038A023102D4002284B300BCA1338250059E83D2865483D7807B0384046D81DE06C6803205E786F182F6057984398685
94B209CF1E9CA0532339019A817015162B85191E90D61B0E22B587A70AAE8B20889395B50EBD3139A67A872023EA34A7272E206B0AA9886812C639D724550733216EA21F21CA8802FFFF91C182EB0FAD33C102FF802729F2936D80B9A2E385C024EE553455D1B411829338C4111C9B0949C014CD8D2420418381277C21F41904
88910068080D8A8284A31A3783C807F9022E00C504AE838107D18108078684C18357040A03EF005D0BCE0865866E033404E984C98254005B838C0A57016F0656022A831F0039850308E48A070B9781520127009801B6857D838C02C794F203C204FD01EC875981D98168059205B2026C0771813A0463886884E90602047684B3
831D020F3DF2A2F106E3027E8AD000ED2B4D47C7A03113CE546CA1A20A7EB12C0DF913FE27DD360988158B4E11F62325232F1EC1024C085D20C244149003054144148CDC1C018A92FFFF1BE48C16ABAC2E8E1863118B11A6A1048936A56E921638FB1D793621B6CA83D80EE90F5886D42B608E57155E0DF405C23D61096B84D4
87EF04D8084E900B87AD0CDB83378066834302A5046983D406C58C4E02898319015A024084DF8092856F05D78428829F089E90D802A004BC806805EE819D05D7076885B2048484C403C18969038C8261008D064704CF005800FF08768A7E809D833681C78055004C83C2818280B58360804C843C08F28722810906A20195847D
965481F00422936487AD88CF0ABE04DC360238A19238307846B192168B3E8E170E828113304D4EBE898480FB1228830585AC1F64107A127C2EF2367A0CBE23F72FB408673D350871FFFF03E387548417463219AD80F825EC89F20321972000B516CC31DC2D55885B08F741E92700022B314D04ED000C167509C70C090710A7A3
855600378D719208010F0388007F026A038181D805CA01DF867C9353050303F688E507F5008582F282800138851B00FD05CA85C304750795846D081180A5042604228AC10A54002B809E80A804A3002705D005E1023183CC064E00569BA20A38041403710054056982EC0390048A880A041D817609A98432817A017500538AC4
B84C0F7E2A0209C706C0940F01C008B00D7E3EFE95AC170E549D0D718C2105BD2113016A2A1A4B7998A886F0200A8F170FEE27AC003C26C722191482122384031CD6985C1BB50E3EF4030EFC84770BD92A6232B623691D41A6E03C1794C7838E06382C281216096118970C313731839D1F44064888C8253911F3176781D2A96C
8ADD01D2924389BD85D7012D887D803680DA051B05AC052B027B8FD402E582728A120ADD00D60237053D013385B8832A02FA05F2006000AD85D7095C0319049904958B7A03C9035F026C87B3826602D7037703390294044680C707E4871B0B0801758237855402F40632045B069100D607C4049006B98AC3864C00C904DA01AD
8C8A239C838803C4986E891D02AF079D902330B48B3022BE473B19078F6F98062126A6B613A62AD1054F83AA1D78947587B8106103898B4B1BC817CBA7D1A4EF86F7AE2B52FC8AE2FC37118698F49063169522EA034227D0922751DA8C293297008F2F6E835F14B28E903C9E35F81CBC18500865807A153088A183B705559901
878F852D8A9184D401CD89CB849E82CE0609023B80FB0505014B8D8606DB011185E706170314042101A00A3986EE813E07C804A080D0061401480228008C056C0AEB8A22073F02EC031789E486F902150298022F05CC02BA841C0D1F93A8023204DC827182EA013782E804040708866808BF826D095C8428830100FE001887FC
AECE620405D2117F86DEA49C031C232C8AA2457F8A7B1A3357A18119A63616912E9384E523600F030C3F2373268B85E213D524A915F412C33A3818A11C32A48F198F961E3D220573F17E9D6081031C0E134D0E2D0676187F0A7D3DB49C7B271804024E751A2B346806A91B462359830733121B6D980140962C1F90E084239764
867D82068F940ECD80FA837B04B080C3808080C606F505F905968CA600E880078A980A4703F8027709CF807C84E9010C056B0E0D046400A58236033806D600B6064682AB0EC5070305988E57807C806B83CA023F0304812D85480CC6039C83AC0238846A80F60233035C8208042787B7093B85B102BC00C6863100AF807786C5
AB5D207D81D880DB1AD8867E83A726AB9B171017920A23AC3BF58415976718BE21259145084E9F5389F731B526D1A88F0D63114825C8318D09410DC990B8AE7F8F41AF1341808537E83EAB3D829743D011DC268F80FE4618123014E59680127C94063C8617CD382D270C1DB43075922631161DDD97BC3B5915950056981F8246
86D7028490D910E600929C3C82B1817C010C8390805004E1950185FE00EE002F8312046B02E983F907A002C08179807807950CA3076608ED819F027E056981740559844E06F708F60534920B91CA829E83C206FA07BB81DE841309199DF2891500BB817B820700F001B2038E092F80E707BA03B8072301FD0069003E03CB06CF
A678074E0BDC02D5192E92B1131A2C97A6C7A5E10F001EAC35930C938A71224C132A9A6E89BF9C299828317D30AFA1F08710390427D42EFD0922136207FBA9DB883497831EAC492ADA8BC84287E02D2383C31F9B8FE83E73082528D391C4223696E13A920CA82F8C140632A63EFE8FA215D512FD953C31B520ED00E4055E039B
A37F89B99BB4042380559DFC02B5806B058E850681F4804B924084268009849285D80B8B8203808F042E84C107E903860155103E067006620765063A051381D80CD5898009270959046292CB949081B4898C00BC09F0024082EC075999A7873F80E0036D82C603BA068B83120BAF84E281B280FD050106A9070C00D881CA0924
83C26E399BE9073018268F698D3122B4AB34D1BE27A10B4D05970BA9D413209926BE9BBB9C1DB82C9D99243249078E4408B22B8112CC38B5015A821AA8F7B4818C0E9C6328B94B0BE83E007185C82DC618E40F9B88DA0F4417A430ABA15402E7849D22B4823632212E372A183CBF05F1863E26E21F066AAA00EC89579DBF253E
978100A694BD219D011EA5CF08FF016501C880A500CB82838237018D0279008E8255067F040A8774013601D184828A2A01CA08DA045702A50C36860703C583560321057882AE05C408459941909606B489B9824B0D5C841F827004A387EF9629876F0460815200278307816F01400318819B81430510035701330236834D0842
062E161C22E813061F0883498C6E0CF4ADC0C54A107F19FB9A4121CEA89C199E236389699847CCE204BB26250B4A89C283970E2F0E261DC88746A5E50D3389A304610A45100811FCD0B183F0083A3F8B840A8A02855D10390C472305A2A2A35696D02BF482FE04222F881028168A096A8007102511742A8208D400D1A91240B2
8ECC09CA93DF1F838424945A076B01598509010E83DA872F000D055B0217870205A803268114863E04FF04668204857C836304110292009C07138122800A82D802770376891C042B0389824A85F182F0897D80FA0A7483FF01A602C587ED88028223808E00D681E88161820B017F0329056E04FC81F980E103BD83EF838C0FED
366081BF25AF01710ED11E5709529B0F80E6B5FB968B0F9199A12F8202B32B7911048D4F00782B31130A3C1A8E95030B8CE808860DD8113E961B9F9A20F3516D1CA882A4085BAF4CCB791C9E20A337A69FA39332C12F01BB12AC847395009741931C2391876391D812BD1B3031C18CC813B688B0A1B88DBF47A4929F9C2A3AEB
9A3908360780261D01C20F71838183588195045B03AF83C800C5129C0674805C0A8801A885CA83A609C3832D81F400D4012B0223820E039A85420130815D030D05640D3189A983E603938C32816F03FD814483A2048900DC021C073989F08A5600AC83CB830F819E8162814906C207B9805A812F046E83B600AE84B182E20A0F
26990E078CF102690EEB0F3B199D87AE08DC9A8191D308F184862BED837F2410028A8EB28A46864D1D78073D0A998AC59F7644A31D65043C9C3B90271A6740FD2EBF874511D19031C3C1208A1F06341202B18FAAAB9491712DBE9253863199138A8E25C3991F1B9E080B191835608051137280D8A00919E728ED950899BC0DEA
03F604D0015526D8812A06A802C48370837F010206A78645815714E30B93865F0C4D04520125803D0518028F8319814B85EC8CB4054C03BB062E8607864900BF8A4D097504FE81D8067E09B3095D0296040684F90172008D8307074F93688CF9062D035401FB020B8354883C027E0EDC01BB8221037F04C00654846582CF0646
13C41A8F80D482EC0009951892679AC0ACF100E59585995F01E60A45127A1E65935509A993DCABF7202B04FD81A98D4F05FB21A3A47FA8A997229CE002D3285E20468EDF15039C0E91A318820FBD09C6B27F8EF1989D9CD799F2877E110F8D280183075D04960E3F9AAE8C548D6F0A2C0F01010C90E50D4D5C19B7DFA1A2A9CC
8698819F9484067983F593A3818101580077016780A68835954E184A04E1842704EF076C022686FD01D0005909C7884483C48670824F01888C5987E3848B801B049A0233067981B60537818C11D180D7809A01130709825000640238884E8754027602908406811386CE806283300623806A00458003007B0A6D816501C9057C
2810990394F58C0210BF1BE91549A54D2960D9A08A1D9A3B996A087A1D8C0D30078F868180982A331DA2039C9FF209960EA08D6B9345837C8BDAA2E022CB4141083D94B104570E1118141DD6879A157BB4348712CC888E928F1088E430AAA83312D88DB70A8B8BC99CA1957AA7789C3F0F9FA3B60C1E87623100A9BA899E1032
946E017D87F20C51038300F908A584F98464832F0184890385EC122A04418315091E00A4846687A80161835608528D9B01CF830D80F3089A00C484F7806E832582F685980F3F805E0B540372094D8120045A02E204FA0169019F056106308533819C8488830A80C0865788C4839B061182998279027C860104588621049D8073
1D328FC10C88071E07A602B111A78FC7201CD77C876B9C4D8AA710E224FC2350203B8760079E1CEE1A1610F2A46705140D6712C18A339318959894FE1D3A30D69358898CB2D618BD2CFA85B185D306A48DF79817B9AB951131DE8F1A1607AF1F050C824184A42BE6A4F496E9AAE901F99473929604FF197C2DEEA4050F17190D
0D7585180B93267E809C07F5055281528032818D030380D60DA216A3027604C50F8404E6017788590256826100C78B678065887C010601230F3E84660392831E8A3A06D2817E8720099608040E02829E033D03AE0E96041785C401070B298072081B8292023C029A849988B2819304CE0227844901E3055D0B70007500E6056F
32019688869C968E11A205BF1EB8083F2753A80081D58E82875C988111FE0826ACD9813E14C125500D5A001C95720C00052786C20B190A250BD3067B837930958FFC930F072A313D87590B2886C31EA18A69823182E90B0B0FAF94B2051F944E00498A1D106912E40BCA1097A31F8B1E83BE91B70F4E0EF313E70C191D5C198C
13D883B302933599847183A905018725818105C601248119115311288565080E0A1F093B0514813002F8814109358BC8859289CF0081058201468B5C06A303EF8C780EFF850600210A750AE40419039882D102B105B70347066303DF2B5C88FB832A0670813D0566856885AC8421081D0325057583140B7F09FE854104AA0524
401117CC813D12ED9D4D00CC9179828202399C4C99999D341EB220D02E3A221D83C91C5F898D84D1153D86668CAA920F89A003508CFD97C113C49C46AD5D0EBB992D076A885B185181AD8062058486EA8696A87B1979828B2FEFA3310817A5E99CC2B6070B5126049D5A859DA85214160BB2979987A5AED80EE79401892F801A
11F387B081370F8584A8939006A401A30009020A03E2822503640FB88330068608A50A958072835F822801740A848A0B850585FC81068013840286DF01BB05E400360B1187AB0A290C330E1788E301AF8491012C0575025C02C602C90CC081E383CB0802069B01E6839884C8841A05AA03FA017E83EB02D50B16032805FB08C5
5BEB99DBBFD101C181639D84832A0E480828DC8C819498C814A81FB34ECC15481E8606328AA1868584A8961285579A69B13D99CC8ECB96E64C0886EAB2C6025F8F0C95D286533BFD866F25099DB189D802E6066B10B312141AD8917C8962B06790CBAF229877262B8D38AAF5C18A88899F08951016FC0CC516C69D0424580AC8
17AF85F69F5C85EF0247B90604610070031887A9805281A4AB080C0B8A4A07A303CC051D821B890904E601CB808888C68324055B02F081E383F486BE06EB02CF0D17012483DF068F065C0A5D8E6883B1835F04640C500231035107243BE70266848F06CC00D1019C01E6842181EA86258112009A038A06D8113106E004D2855B
3B1B87A3AAA308C709289ECD8A892420895ED8408962A5300BC50C363DC990ED4964021294C99EFB019F894284F68F6F8D629F0B95C4948A3DDC0344E114B14298AC8777A14E361C147A332A88488D09943F90E42326834B115B08A80BBEAD8D8C7EC13099CC462893CCADD6D6489381AFC00B0E367E342A0ABE9F16136611A4
00058200952105C003C687D90729037C8395862A01E48753918C081F87DA007306580138845689C002E302830809850E00DE86B8805E014105C38371813000B20284847C0257045608A911D6869A0087810A05FF0D0E025E80D908E71FF301D8036F0822880E053080A70014807689628015847C02F38153057C02A2823C01DA
89C823B2AF2E0E48820E1EF0B2E58BDA914593538A01B1FC8EE3274E13E2A46C39C692A410C19D020A678982983001E5809C8E309CF3AD6F0934BF85CFF7A58F9C88121A98A320B9293C82771DF48AEDBCD0A2790BE59AFF8E89383412F69C83B17FC26B14500E2FAF6D9385A32D805BA198262508DF20E902CF8A4698A90AA5
08750278837124440250010901E0043B83A4825604B5874D03240AC204C2899A06D40358829582ED044D81150D0906F583948D94040C02400BC803F08375026D884B88AE8A5000030188169300BA830B810702A7086C806A01CC08DA9A67879902A60112840804E7848A0061812D87FE80A883CC051E80240109030884EE00BC
8F19340F8805179298690E35A9DD9A27836704FB8EB98F120BEF1F478C45A45815B304CA08B494A7903F0FB90470A151949B8197A2AC043A027CB255DF6CA51AACC413E2AFE136068F2991EB1C9597EEB42A86300E320D4E110D0B591B691D6A96BDB82D8EF920A188F609730C760A4F8EB90CC127AC284A02CD007FB8D501A0
815E025702B5079000B783FF855804110115087C00CA839610450743811B006A031380B6801002EA077D056B064C0648805A8A1781A102190286802B803685890288855605B50777067F04BA824D802701CE83BF06DE8554019106ACAC0A817004B28593804F060681D4812A849800DD00CF044D003B013A81F204A4015D037E
98BA272387DC26A583F68DC29E919F1985521DDC8ACF19F6114634AFA3B38B2E11AB9D9804FF8EB99234A088269C9A9688B51CB18057116B8EDFB166CA148CC0A4660B0F851B07C88BCE9A11028391A18EE706330D14230E115695C915661BDC9B3BB65583034ABC01D53D4A1F1A83F69AE10AB04007479F8808830EC05505DA
0AE704348122157F81469D1304708091828606F281D5846A8EB0059700EB84C2034A0226028983BD060C00D3020703C1841208EB80E902BE901F870C814302A284B5809989330493092D065A897E000C819482170365016C80EC05AE96E500C581A40245015E0192009385B68303064705BD809D060683FC00A5802A80F80936
1F6A3D7C0423088F16A4015AC6A791CC932C02CB16C69F4911A20A71000F9DB84FD1B2A788B1971908BDA553141584AA02CE14788A32987E8C3BA3C5C7C8C540833901718A4C058A8A4F09A510358CB68181B251910C803A14FE8EBA948210528A3DBDD69B29423B9B56489400258605D2791BEB4ECB22F0E7319329C4982067
122E034C037D259D840D8D1480CE032E0321016306BC80C98DB4096D05CE82630CCA058804758400000B08DB851000C3885D82D9069480679242852700D38319864C0C4F8C1B830306578308028B830000F5826207E382D98233057F9A858D1A0314825A06DF0317000F860F87FB05B7047B84CF80318722022B8171816B08C1
0B0E87E78CC7006C0E8E0C2BAEB3A6490C67B04D0808108F15851C1905220AEE8AAC920E19F61E1E0C159CC1AF45B1B9927418D784F691630111C6F790BB13D5858009C00B8DA5F5897722D828F62E75879D887E92D118F318E88EC48989AB0FA294AFEA9B5A2839903B3BA40A72A1589EE88F0917EBA908064083ECE5FB2DC6
0E6B07720D1111B501888C6D01B601C304960095067B013F02BC0D2C058A82D905E903E7021E0100810204DD8406060883168614071C0128838C8333002B00638DBD06EB00BF00DE094003458603830C84A5018505E4874F80240F0592138B0B80FF86C606D4810C00FA8300824E0C3003AA80BD05D001CA018080E6815482CF
2326052C00F8AF488AE32E8DBB719174073CAED39BF58CFA499414128DF29C1696B7927A9E95921E8794AEDB89C7CB35B19E32169D00A1899E89D0B1B5EEB3D2A5A61800B7BB8422885A203F369D13980AF7B6E52BB703AA2186BE689A349CDFE3C9E76CA4301A619E6925F2851F8981AE449743851A81E2BF0D834EC01739AF
1033072814284D1A876C06060952805C034880028323856503AB080689BC87C28A46026582DD84D214570220823C0D4483BD850403EE84D38CA083D30672028CA39E04278C47833C06E00136876F85F780AE85C0086B82B489D5089A88B69076805E80E809C3869F8395811E84EE08C806EA86FA002D81C0850104E4816100A3
0CE7883326250F0A938690CA93148956A13BB0F29C9F97E28A9A0EF79DD984D20929A032A112A36305938B1CA9670C750533855A830795720BD09FC809AF094390BC0301311C9FD814CC027A8CDE17568D329BB303EB9D4D819D40FA8A6025D3C36411B8840C03179A33819F980A13D68A8520C50883A4CC0A7F8C589E403E42
838A90FB08610552186402DE0B532EEE194CA2F21DD71342069E863E878824FF09EA83FD1D321BD28D54871994C70BC3050084830CB6856781B0843C099507478D2F9FCE0EFF054C870F03660A8D21878CA00940936F19D704DA05C10D41856881F38720817712F0034A0E3C04F7A0AE8DC70117803F8F568827055D34061316
87DB048285A18106059D834D089E81BA0AF405A217B1042482398D5F82A206FB80378F680A1A0DA290B886280281075209D8041E156B198F04B20C0F915D01238E0A813110AE03C384CB03B1020C849802A906B9864016628049834D002F85150C0905AF008C0A430F8D0E920AA9808A010397668E48092C04A8111004E190F6
00ED23B70308805002F6830D1359B1108DD70CF59A2381FC0B358CD507869D61825B01FD809484CD869A877A07B183E800B102A908A407BC8699959307C0081F854E29848488895F81D91ED50BA900858DB90228072000D5977F915012F3094F89A937C6104B892011B38579062B8AD709A10804897B22CB337105BAA2B40701
87032C5A09FF00898F340C1B0FCCB7058A5F33B5004D8185114D09C3874A97CE0AC990E6827F91F28186985241FE06F7805B18F38F83800C03DB0722867197930388289C058706A5831E11D916948DD00DF680860B9C803E84FB9899080F057609BA1B5C04B405831848022A0A64114E81DB11D900594EB214F081FB8ABD93F7
06920C1488CB08D88281019682F50587052B852305B180A18F670458066090F8211E8870831A000488BB8789852D075308208C8708B908ED0C5620CE8DBA8F7D080F904D0ADF0D9985BC025DA4508B3424C5031186988E570209105F0831875426D0030A8CA5015103C40DD480CA070E94380CAB4E2C01B290DD0A02801CA5E4
8E950987080402219B5603CBA70E0A8198268F53065B9AD2030708ED86E7869C19740587A16D848B0575809F049480CC020298D6974291E7029119ADA5A495EB80DA04D0126B131788D58AC10078945A28F68CE42E5E99B21EB42E3B00401E0E077A835EB5B715DE955A0BF5992138E48A5C62CC145102BE855E8B91075E13D7
851B89C40D56856589E80997049A871C830E861C836381931EBF8D2E86C1822C9D0401E3071DA4081887207201D287A294428A240606833F03528ADB21710C031C81219C937895900522903E0C3A01B396789228223909AE818604978395830188C60AAF1436B507897D8AED8939860D2A0A93B98F3681C30A9D81468C6B0A73
062E1FE90CF78D51BD400375C63D0200908D123D0B1E9A1E05C41A76104D97202C9009A595E4888210A18A7B1157881A008E9906961A98DB92C9096196F6A284802D0E8F1444816A017D97708D5E887D0D618A09186AA62D079E1CC70E110B3F0D17A168D8CC12E798621559977746CB8A2122AD0F3410D500CD89E280C80870
A1710EDA04EF029C144E05C421908E8A0412135D826B12FF04DC8BF08CBE966395FD86C281FA08C788DC8CEE12F50AE30E990FEB008C214D085B80530000814801CB87B6016D0B6100DD04B80C8B0AE209410180857B069D835C918C06528C6D061808EB0FD3922F294B00B9306B8A46949A056F094414BE0D958204861983F7
00060724031D80AB13D60A4F8EA120E01B74847C16F80E7000D18396863D1CC60C61913819601D8DA23A01148F5209C61EEF08B31DAF85FF0EA7093A8974834F0B9D9A310DB78E1D999695A9045B0679171705EC8BD10983138203C9857900C99333917B88E71356821B354682CD01BC868F814D87B592798FB513C20B5E22FE
8D76065D028609860F2686892C6A819585BA10A705971684053D0A9406A4948880F68814061C0CF8846993FF03A015CD0E6A1B7900950922083D055411E383D6852D03610A4301E7842707D401BA0D2C080E87A68B120185932F953585C8033B0C6611161485872D3605860B23E583B3861286FD82400ECB0F5D033E063307A9
844610EA83A88C85089B8EEC810329D713E3891F32B60EE197A506EC835D1E790FF287EE10B1186B8A5815EA8F6A08730605A9F306F5804F149F822C04440DF10F949BA913CC0A6F9B1E864692ED0BC4140508C4855A0BDF27761BF189561CEE96ADB4F8007A16D0036211EE8F4F80048CC48D6E8DB4B8A3AEB504A823038836
14D50E21110C08358115824B45A700CD89110C5181410AF20AA289670FC0BC5E032880BF038206010BB48A888479022503D0123F02FF062E907B83EE112500A3032B0D24065C8AC706FE1B20018D00AF888B8F208EEF8357E8058A3D883882AC8D7B29152FF693501E9A85EA02238B348831959489980C5020718B06805C0BC3
007820B808E701FA8813022710BC93C78C9C0E0A924D83C503D00FC4018FC18E08FE894388B28D7E8C3282BA09FE086508AC0D9C012D1032907C887C0459002A000A28CE06F083E98B6821601D5B9646030D8802805D8C659674866F823D0BA582844E0814A1885710BC0211086286B300D419290EF62CA128AE8A408F5E80E2
876A16528435057D076D8BC782F20972004A110F13478B95081D8B4E0A408F7B043A965B82888102886F950F0A3204690C860B6A037511BE843428539228957B0F788C6E09841CBF8AA804CBA9B796B927E6113591A988E09A7A8E74059C83D75B548A30872C82DB07AB0A7D02A4806D92BF116A29B703AF885582108019BF60
87D00F8A07BD8E418A880BC5946A01C08A5403360D4E01688B2580098F3E053F17D313F6855700B78FED11CB0BD58605818CA018891989A689420C1C060687D40A8584E08401822C8875950F9BBE846C1046859F8D51878F818D00D4076315B7065993928A9A81168DEA00018AC611BE048A0521806B03AC93F284010EE8A6D3
0ED0C24886498E248CA5106B160E918D807BBC5500D5882982FF0E8C0D66411D89EE17FC36B3111C460A1B2BBDECB0AC8CC4BC6B0EF682C101EAAD65224233AF82C7139E9CBB90A24F0C835999EE09A3948E2D481A670D1A157507A8144880B505C19F36890287978B2BA8B79D56A0B938F9CF7EAB9FAAD6217984C38832B133
11A882B215C00A80871301A5915B06228B5B98E102C184928A2A82CA83840D2682FA22D686D802A0208A29F800BE89C08A9AA92C839987E20BC30388000F03A688A58CFC062984118AEABB4F8DCE8B2E87BC880E1A288EA81F963E4B84AC01F780858C48A053008D895800528FE68169137633C00BC8965E94DE84EB00091674
8DCC83C502AC0766055A00EA8F9124A82009E9B02F410735083403EF88C2418B000E2BC603FF1D64821D4CCE8420822F954A8D0B86DC8242952C0CE8153C10F495F490C79F8F0FD7A39FCCFB076320F50BF20C6B09560FA03A3C227E03362412974DD3048AEE073A87E38005B4EE0D0816BD07098B789983B9CD03A91E751592
80228368806B0E210EFB06D317BF05E4095F06350EC523A80507851708C308D296D0817B11690CE4866A002E86C5829F02B102AA0BB013A6804F84FD07640F978CCE80B104860392842708F6057911C48214802783E125BC0A9C879781FE8C58015308B409F68AA62050026B173BABB5852197DB912002D60BD412A702248C1C
1A650674105105CE9F9E821C863A995D965D0C0E8BB6A81E07B3906F103A83C8966314099D09A0E3A1391B382470967F8B9A812A89AB803291F39448881B9462873011629E9498A52C11A079AE7498D483CA97B6425191929E0519CC8CD19B93863D00CC82CD9E698A0F961F009F1CA20A6415B409EF138A0404932095530AB9
821005A98676855D06B209D909E383F10B2D0D5A819C052582068AB9055D1A49821A843C0D2C07EA8A85880E0C07834B0E0F0C0911803CAC0D34148D832382A406F589CE01BB13E984BB08F8081283B588532FBC01F61AB5017290B80D18866A15DE841480B504C6065D05BD12B893238631928F8D9C08940A5918CA017CB515
096E81EA822D0ADA879202D2933E11558AAE8664266D855B0A3D0E2D07C982BC17ED86AE99C90650B05E8E86088E010901C782628FC4024B0ACB164896628D4D1EDE8FBD08680B0498CF02E8A3A506F92BA21688077C8693126C0813037C015D1A7F96F9873615DD88C21C0A8B440E0F8D39844481B3899789C881801868986E
00DF8AD0053185241E4E0CDF10851B5A8015071D14FB1F2A07E385B301E701AD8F49841D09640EA0834F830A813A818488C81767808F84FA009B86B225213014993E05F497BD876C8C8107C60E5D2FDB978404C801150DE68AC192AE896BA12500B4042C13D095440E268A3F0F4BA71711848EEC8E4207571699006812E0078A
80C72AA91309840D965C18311D179379803C3A93A4460AFB3767861789EB8C668D6E859501D08087838600CF130E8B1481598FD585A20234C03C95C12CD002E40A702BC98DB00CE89EC18052078683998C8A05821CC30F7F9035049A1437B18402AC1305000F996C84FE88620F3F1B64143408C2880017DB3E0A856B8DE3914A
11850A7C064B927D8B48029282F98DF786E60E3E0F4403938A281C3911E408F714499E0E01C6835C811E8BBD8239048E86FB01298ED59704098E8005877D8E6C8A068BA90A2488AC8B2517500777848E0E1E0B229705876805268591857B829D80940604000F09A2873A1BDB8D2F045AA2B70C2D1E1C11CF0A4787210720B17C
8777010D16F5050D8C37904709E289F38FC4037892828E089582100088EA9DBA1C4A23CF96CC9E12312F01588DD190A5AD7FB050869C81F69B368ECC1A7E07ECAEE00ADDA9EB8B8B4E728AA91D598A759A60919709548F92AA121C408B09888387E708E506909EE181F0998E05678296011F829D0596903305299CC38BDE0AEE
8C880D95819B81B40569044283F78D3B087F0FEB001288910D38001793F887A0101F8A928BC7049485E4999D0CF202ED1D2F0A9109B6120A8E1821758E488A7D08378235058872018BD20D3504798EA4197131FA045882400833911001DD82260DDC82E187F916D901EE09E9122E107B9CF51B58189209908083053600F78F9F
93EF93DA8C8B00680BC21135868600C20EA48ABF2323152B8525814A84710CB7167585A60BE624AB9E7483C9921716BC0BC892C20405A203239A091E854009228AE8931B22D287B299531976017D0ADA2F9080099A7307CB049F0E9281E2027F9C7D8EBC92671D060A4224428E9582B305FAA3308EEA9544910E1104136D1807
81FE1F50100582EC931783ED0937A76585E20AA4884D803F10D684F10042867B003E0461043794221DB400A825AF82DC86C30E590302002A91F590DF070983CF032C3AF297EF002A835C832E0B68804D04AD0470155706088E0C881414AB09A182E80D960B9789D501B300C201660CB0138A051184D6216D1E32018D8E8E0BA2
06980FFE85280016ACB880E0D9460F81A5E6AD598BFAAEAD8DD28086094226211CECB4C2B2C2933811C749850F7518022390BE92AA88098F2765125CD6F7BFA8601FB2C39F3B0299A73F1E719361E4C997C68155AC38AFDF4B8A17C30C7224463284ABD2D77B1B66C6FD9634B6171327B681444723B19421AFFC9475998AAC90
8F7094938485857C065A02B711AF8BA407AD050A01621C918053A1FA03398785B62B8600108C01F4822201AD857F03A08DF8179708FB04298647896C23F3238C8CC70BEE9DBC91E8049B0F8E81500A619D5C03FB8A0808D107C79AC7085B9B45840815A61EE094A603C18F3303FBA57D0F3395DF96DA021417660AF989848170
85A0953A03608002017003860FA1880A00B88011814C0EEC0A4401E903EA05BEA879076400118367082A0CBD87C980B2883A12D9035081738C268EFA28CF15BE85E70E238C1E8F510AB207290E07160D93E4851583D108F59EDD8D550ABF852385E91C6E1BF3C8C8045E96E0807B8E300C7C96DF8BEE050B1CBA0437814C0952
88DA0AB688860780861C0B018F8B11560DF4088C1FA180A6018383F3025885DB16B08B0A82B00D6AA06E935C02A70D0B19160C4912D9131C012A41479D79A39505B1968D15EA26789E0F00ED97AB8BA41D88279E85AD84581B5A8704033B04C1119085998A9218828B211E2D07AB08259DB91B5D1031870291201822163F9B73
8D499AE2153182E709DB10C78670207A847282F6808F885C0384815807C12D078B7E93090FD08816B9950F1DA4B888D30413875F12F9913B1714819F931B98B004FFA3E60FAB8B82ACD48390825A96EB015B1BFDA71482273D198E0807F70CF086F6960200CA2E990964139003C58E0086439C6D92D3A1EF985D862985F7908D
98491681064D079D0856030C0FAE872D09F11C3C048E02D708068B488B8992170452886E039D803A94C78EF4164709520DA5044E17D73C16071006D08E370268053E85BE81820E9F885307F6854290B20BDE0E4D851C0445001989498911892C0E35062309960194119C88A42F6C8CD88D9885568428133101E78472012E8D76
8846013D0E78007A0DEF08441A71035917DA0392064B169404E297D280BF07B7835580DF22681CA68B638557830106490B43011F22540C2C0129811F058A0955A79381BB0CF5876B012A81F003EA17C90319836783EC2542953480790F7D8FCF8581035F13F0872322D60432201888AC805887A395DA059108C984C204F91AB2
9D39016A826B988801FE809715FB0AF986FF2C1F0281883184E083AD8753BED08420976B882601988DB2C82109010A46120C348A825717C28B9F80EB0FDA83D406DD135094A8204001B41A6A118B0CFE81AC16768E3A8792AC1AB67595CF87891C3D26F521D591DC155800980B1102D3894C90DA0CAB17AA29D7040B81FF8B42
829700538E6B029809B1939301C083E107400CDA0ED503D5895EA5258B08854F87628D9D0622072780879F7D0EC80B031EAA137F0357859D006A12E495DD8499828D899C0827291E82440BBA963E8BF40A96202788ED0C708FF8810007D38E5A20FC010E06B80C81038D043F809B863F90332B0715120D3C88790C9105C0889B
0A2F0A3E86D581240C3688F3838A0C83074C05471D5D12B789DD948F81BB06F28760951B08181022A8168D4B869B170B26D00DA4071F882A8E5F0FB491CA83CA02E885CD0F270CB693B4112895D285D700BF24059287085408C883FF81EA87D60AA18084062809150A8C1C65803B813095D4851A1B6F84F8860717270ED32C8F
8276257F0D7E83809CB703D4000BA18784BC336F8B23868F024F06AB083B89EB113C8BBF80249C1C8CBDA86344A30B3D0A2E18BB8F8889840DF30A8694D2BBCC14D4140800A60D3589B606CC07E0A31C1A1909360E3B825184DA88E4064704E70A6B0B94809C0CC00BB50376821E119A8C3D285A137335B606E3810785A68A01
0939A41C003401678586057E8617137F01D9ACFE0478028580EB815908FB174C938F25B603110536868D2F5297F194D5889580F30643871E90FE8A0419610FA98F488B458F468AF684AAB1B90352135A90D9862916E680B81E5D8C1380D501258E5191AE06239D77869B92198CDC86811CAA019CAD0B9221948502AC05590D9B
8A618D1600D89D6F85CA044F886F8BFD83CA87309A3E85EB0BBC809E9A549A67931A1B1A921497E92B6B14998C359D258E4F8F8D8E378278B4F9928E0C808A4100AD84A0B03183A60C6A9A5B1D2D8CCA9161914508218DCE00C4801790F281940723063083D0A2238F079CE38E5D804B8040859A827EA0EA064F96BB8F200A54
845B9FA784450163214B0945028F15641058872F0EED1A8104378DE70DA8022607B1080F13B91F0C938082DD929786A50822083B052D117F0F470AD2126F23280A32815188A700BF980E0E3386353DE408CF04A589A813F42861836E00F50381824E813908510CE41147085C05D3A2EA174E035B8AED80DB00E4088B107D88CE
02CE8D13046E03F81AF60062179304DB1B74824812C81EE2068E867904B7826C81BE882725741634062A8B7092FE0AE506840127102601D007D882EC050F0AF19348838C8224857386680A7D8BDD1A6C814780CA8359316896FB00FC06D38FBB091883D211889411154302DF0D429A81053F8C7F949F027B06960D2B129282E6
83E2874E041E852F882E0D9600BC00D0850888F5014B964208EB09C7806F82698F8E42948D4D98F215C01FCC080193B38E44914601228177858F885E1CA60DF60C9219589B3D8B1F17D9950803F0811C8F6C8BAB2C42898D847811AB001E8EE28B3204EE80968B8287369BE6856381BC2B68016D945A87300544801A879704A5
1EEA104804F78A3C0A65807C9525091503509B9B26FB84298EB2277908F60EF13039002F8841110986C117FC8E1A82CC8A0AB5D68D849786151887E38CB8913502E79DEB11CE00F08D7506D68EA20144292D90C88C698E322F021E01831B0C6A8785BC5E93B225D399AE141F938E09C68D81011E8AA2952FBC14891614EC0675
0297D65F8EC18A740C8F001F055214200F47A53E0BBB07B40156898608682363963411980DA31B7C00D31914A3A88EFA8BD8027E84C902B48113007F10051E9C03B097EC813D86DC850EA57F0AC417E7003301D18E1B185E0F6E91F001048A0B04B6A4C1059B008186A894268692A6C50F3E9B329AF4A0899B58135F093D9081
0C52D0C88E4F02A200CA8CB70AA9187B8C78A3DA1B22061298C4A18F1B1C146898FE84BF14AF818014A92418A41109CC00B29648931C9FAD0A4F9521190E18F30B8803999BF0A85911A801049FC514839A1F0D08926E01AE84040FFB886312EB03F28B68002E8EC1889D8AFB9764A15180E0916B82D8895D066009B21494040B
1EAD8A3626770C5CA62129B49E5C011589DFAC0A2691808C1263385008C907B0247189A0849580FE09E213FF98498DC3B2E0D3149FB6AB8F80EB9BB5161BA027D23183E7168597940C8B051482DB261917F79F9D128A909E2F351C7582500B8196D9B98E9F960E2AAC1B89F2A8D22C310824128E8C7D9F2F98B0901F13B107B4
0472000C86578B72A479159F90B78D439134058F889E09F2121A8AE8021414B9117F9589001C89A49A3B11902E24896C861A8898A3D001981BC19314985CA6BE1B870F6487D29A2D8E0F0AF58C449D9A03D993A00FB80E68368B0A1706AF80D1979414BD944A08970E848B768C7F12D40F6B1876892D31BF17E188BAB033028A
89A78872813F091D2606009116A10CDF064C807B186425A2025007860BE282BA86B788D9056117E2955101E189A80BA7809208B100AC085A11AA055C18AC0E0A80B301E381FA82128E7E08FD86B21FB088BB8523014D1F9F1D118FBC8A5305EC01CF00E10EDA831C1FC400CE225F895B871582A996FF0850031E04690FB58759
846591B68DAC007807EF071C859F1AB30F7B8BA448F308F184A40AEB05ED1057064E9196155E15EE99CD0421923D14100CD40FEB18EC853E82F0843D078382BC9E6A89330BBB03BF8BD0A11381270FBF8C5E0B778FF88119034B839902308D92047394C0811B04B88B5E19F6874E0A69834684BF903A8C058F730C1A3E3E128F
8E1822F3016B866587D6866305619F418AAE47FB808B897E13118DD5035AAA3504B3928985F8978F0E11B3892822133A0B5C11818F9707CB8E5700FA9668960A17FB0B9F089B07BD010C218311669BB011DB0560022A88C193E68CCC030E8AE50C7A2023875A82F305520A24069C051985BF83AB0C462C5C228F850889D796E3
812E8C2F0383042D12DB06990FE1061F1B520BF00F391A4807EB8C58012A104481F2831A14551B1A865184F581F502120EC4021C12FF114008E508C105470BE68ABD81EA094E03F985320CEA058B16A00B0812F18681231F86060279020F85F70D4605C10C2880091E040A7B140D871B058A819C8DAD065E09280D3310110506
802BB1460E1E83E110D3017C860444E60EC688261165032103038AE2069C1E6488D6130D87A00B1A83130B049D078CD30F52223805AB0C0C8BB505F209651729A8D198E8916E14A58D5986620ABE0A9F8BDA0F280C190B7D0134030E91C8965186F5857402E0047F058404D9083E088B11CA0C2505C29AB18A9D016707D01B38
09420D3B087B07A4074A8238428788F4031F0CAE80B7122D85F88B4501339F05874483DE090F0C3A01F19037852709EF0543105D146B1CA78C308ADF0F9907158E1806C303FA88140E1B096580CA885091D78F1E89770A17CBA890FD0E36098E8BDE18562DBD94C625EA8C2B11B29CCF84E78D73902108021ED0809F818706D4
158A97E900BF0E0CB28815749D8418BEAE8312CC132E939E140483A20BE211D68C7C1097B301A5F189A3824402A792070FDA927ECD30A406911CB16A8AE381E426993580B1D5A9A605C890FB8758948288CC07EF362C9D8F33B410F6884C02E3940DAD29ABD090A1A0439B1AB7513F8120E6969D8DDB829718DA8BD1A015923F
00DC80B303E803932FE3819F2841156C0B94003F0A78163F822A046C063A85B38635908D80610E229FCE8D898C47101514EC227F853C103808F016FE1A0525D4061A8CFA8CC0872D850B1EAF0875179E87C70DB4996080F601979D59860E99BD094007FA23198B5C2ED58D2D2D24C2B0833BA4D283718404081E0C1D114F1579
0234809B10413B6486741BAB0144026F8210894A817B05F202521376092282CF0F8C05C6803A054B81F30EB680D4896B886C967500B3807615390216051384B3C3248861152A856203FA82520151800306428B7914878299016C03851D55915986FD023507B60094814283EC0051067B0006121F00AE8547060E86A480930B59
1F19828610E48874866D081698EB8C1198BF8A2384A4028781BD167D21F3998117ED0155960F949A0789888B86198B95980E824F9CC4A1279424A5E8871196B511A616E896B8A3F513062797975691A885B2AAB7100B8A901F560802889680479F2D96C985708C269670912191160C65156B05E29D780BFA092597A58AA10371
04D94C1015171135A14B099784038A1A912F0F9D07A18651169B0B70842990AD1B8982368EB2869C8D4801E023320700851588A588C508DC057E0AF6A229B4C7198314B319AB057C92408A5B01938B9D21F081010F158C0C0A5217890EEE100184758017931F06EB0059069D804D2713939F22781D1A130B8FD48701071B0A7F
134B81B8025308D5935E829306F102188FEBAE1106D0940B8BFE07DE277025CB1BA1878A863A8CC509941860934B8DA89667968881B9874A937F812907E2803A1DFC08FF0355ACF7145B8AB801858CF60570831C84EF87A33A72951487000C16811A90F8856F232E8DA08E2F952194F20F068EB78C25A48C975D060202DD854E
000000000000000000000000000000000000000000000000000000000000000000000000000000000000000000000000000000000000000000000000000000000000000000000000000000000000000000000000000000000000000000000000000000000000000000000000A5530E01B4FE09E7BE9C988B9853BFD4EEBA9570
0000000000000000000000000000000000000000000000000000000000000000000000000000000000000000000000000000000000000000000000000000000000000000000000000000000000000000000000000000000000000000000000000000000000000000000000000582DAD584A789DA028B8D29AD3D93CB84278BFE
00000000000000000000000000000000000000000000000000000000000000000000000000000000000000000000000000000000000000000000000000000000000000000000000000000000000000000000000000000000000000000000000000000000000000000000000001E5ABA1026C946C003A0F44B1DE98D504B103A8
00000000000000000000000000000000000000000000000000000000000000000000000000000000000000000000000000000000000000000000000000000000000000000000000000000000000000000000000000000000000000000000000000000000000000000000000089511090910B03C789D2A2DD0561931E8BEB9333
00000000000000000000000000000000000000000000000000000000000000000000000000000000000000000000000000000000000000000000000000000000000000000000000000000000000000000000000000000000000000000000000000000000000000000000000004AA878C05BF90C284A4B1D40E61894891AB9588
00000000000000000000000000000000000000000000000000000000000000000000000000000000000000000000000000000000000000000000000000000000000000000000000000000000000000000000000000000000000000000000000000000000000000000000000087E7178986390EF48B2680F78A4B041D041B8E12
0000000000000000000000000000000000000000000000000000000000000000000000000000000000000000000000000000000000000000000000000000000000000000000000000000000000000000000000000000000000000000000000000000000000000000000000000DCF08178248107EAD888BA0A55404C197EE82CF
000000000000000000000000000000000000000000000000000000000000000000000000000000000000000000000000000000000000000000000000000000000000000000000000000000000000000000000000000000000000000000000000000000000000000000000000C1C51059A0CF1735B1D286FE1A7381799476854E
000000000000000000000000000000000000000000000000000000000000000000000000000000000000000000000000000000000000000000000000000000000000000000000000000000000000000000000000000000000000000000000000000000000000000000000000A962812A0CFE16FABB07BA258D498857AE7D8641
00000000000000000000000000000000000000000000000000000000000000000000000000000000000000000000000000000000000000000000000000000000000000000000000000000000000000000000000000000000000000000000000000000000000000000000000087208B0007AFB216810C1827820E8EB209618E34
00000000000000000000000000000000000000000000000000000000000000000000000000000000000000000000000000000000000000000000000000000000000000000000000000000000000000000000000000000000000000000000000000000000000000000000000007E9A1740AB395C50E0B9533B5A6AFF786A91FC0
000000000000000000000000000000000000000000000000000000000000000000000000000000000000000000000000000000000000000000000000000000000000000000000000000000000000000000000000000000000000000000000000000000000000000000000000808680998086A65F02DA0F0C10F098BB08D1A2EB
0000000000000000000000000000000000000000000000000000000000000000000000000000000000000000000000000000000000000000000000000000000000000000000000000000000000000000000000000000000000000000000000000000000000000000000000000F00BB81109EB2A3A0D397D78E3984DC9BE91512
0000000000000000000000000000000000000000000000000000000000000000000000000000000000000000000000000000000000000000000000000000000000000000000000000000000000000000000000000000000000000000000000000000000000000000000000000A2B148693D1891312FB89B1030DAA7C0462A899
000000000000000000000000000000000000000000000000000000000000000000000000000000000000000000000000000000000000000000000000000000000000000000000000000000000000000000000000000000000000000000000000000000000000000000000000871712978ABE935C05ED92F1054EA28000B6A17A
000000000000000000000000000000000000000000000000000000000000000000000000000000000000000000000000000000000000000000000000000000000000000000000000000000000000000000000000000000000000000000000000000000000000000000000000813DBE53034DBE4A8315087B03CA0C33112480D9
0000000000000000000000000000000000000000000000000000000000000000000000000000000000000000000000000000000000000000000000000000000000000000000000000000000000000000000000000000000000000000000000000000000000000000000000001D0E962DA1760E42C018014D9CF4A08AB5160EBF
000000000000000000000000000000000000000000000000000000000000000000000000000000000000000000000000000000000000000000000000000000000000000000000000000000000000000000000000000000000000000000000000000000000000000000000000D6BAFF750F584F119A831412E164280B14581497
000000000000000000000000000000000000000000000000000000000000000000000000000000000000000000000000000000000000000000000000000000000000000000000000000000000000000000000000000000000000000000000000000000000000000000000000862B1085059D0B33B7818D6E0C368265A1E080A0
000000000000000000000000000000000000000000000000000000000000000000000000000000000000000000000000000000000000000000000000000000000000000000000000000000000000000000000000000000000000000000000000000000000000000000000000960399709306948DAC2484020DAC0A289FD423A8
00000000000000000000000000000000000000000000000000000000000000000000000000000000000000000000000000000000000000000000000000000000000000000000000000000000000000000000000000000000000000000000000000000000000000000000000002B0943E993B9078075911CF806387E7030C0D3D
00000000000000000000000000000000000000000000000000000000000000000000000000000000000000000000000000000000000000000000000000000000000000000000000000000000000000000000000000000000000000000000000000000000000000000000000095E714478F520CF1CAC7A154140406CBB4788604
0000000000000000000000000000000000000000000000000000000000000000000000000000000000000000000000000000000000000000000000000000000000000000000000000000000000000000000000000000000000000000000000000000000000000000000000008B5BAD698131BF4705F583E7AD320FDB12690EC9
000000000000000000000000000000000000000000000000000000000000000000000000000000000000000000000000000000000000000000000000000000000000000000000000000000000000000000000000000000000000000000000000000000000000000000000000016DA8ED0F2CA77103BD95BD8E9E00D387700D16
00000000000000000000000000000000000000000000000000000000000000000000000000000000000000000000000000000000000000000000000000000000000000000000000000000000000000000000000000000000000000000000000000000000000000000000000000108C2CAF361376000F0C12907981DC00B3909D
00000000000000000000000000000000000000000000000000000000000000000000000000000000000000000000000000000000000000000000000000000000000000000000000000000000000000000000000000000000000000000000000000000000000000000000000092848A3390B8052C092D04618D93ACB10350BA79
00000000000000000000000000000000000000000000000000000000000000000000000000000000000000000000000000000000000000000000000000000000000000000000000000000000000000000000000000000000000000000000000000000000000000000000000009628C668FBC017A18849AE3973581071096C2FD
000000000000000000000000000000000000000000000000000000000000000000000000000000000000000000000000000000000000000000000000000000000000000000000000000000000000000000000000000000000000000000000000000000000000000000000000BF47276A84931DE9BDF7A2921CE71570A02EA8EF
00000000000000000000000000000000000000000000000000000000000000000000000000000000000000000000000000000000000000000000000000000000000000000000000000000000000000000000000000000000000000000000000000000000000000000000000086D9A00309BBC64B80DF0995A62A137780E80E5D
0000000000000000000000000000000000000000000000000000000000000000000000000000000000000000000000000000000000000000000000000000000000000000000000000000000000000000000000000000000000000000000000000000000000000000000000001710A0A61272BC6380A6A133A33AB63C8BE88485
00000000000000000000000000000000000000000000000000000000000000000000000000000000000000000000000000000000000000000000000000000000000000000000000000000000000000000000000000000000000000000000000000000000000000000000000088FC100794C21E928F0385C90F8C8CCE847094FB
0000000000000000000000000000000000000000000000000000000000000000000000000000000000000000000000000000000000000000000000000000000000000000000000000000000000000000000000000000000000000000000000000000000000000000000000008AC2D0E4BA7908BDAE1116969C881F4B435D8BBC
000000000000000000000000000000000000000000000000000000000000000000000000000000000000000000000000000000000000000000000000000000000000000000000000000000000000000000000000000000000000000000000000000000000000000000000000932605098DAC0F95130507248A3682090A918762
000000000000000000000000000000000000000000000000000000000000000000000000000000000000000000000000000000000000000000000000000000000000000000000000000000000000000000000000000000000000000000000000000000000000000000000000911E1B72A0BB0F6C0A7F8601087E8484074AA321
0000000000000000000000000000000000000000000000000000000000000000000000000000000000000000000000000000000000000000000000000000000000000000000000000000000000000000000000000000000000000000000000000000000000000000000000008D9CB6D28550B9950383139C9C070ECD80B4813C
000000000000000000000000000000000000000000000000000000000000000000000000000000000000000000000000000000000000000000000000000000000000000000000000000000000000000000000000000000000000000000000000000000000000000000000000B4D9DD0C2E78C6CBA44F00F8F1C35EF29C5A98CD
0000000000000000000000000000000000000000000000000000000000000000000000000000000000000000000000000000000000000000000000000000000000000000000000000000000000000000000000000000000000000000000000000000000000000000000000008B7187BA0CA5B5A290670CB18D2A0D0C81B20B05
00000000000000000000000000000000000000000000000000000000000000000000000000000000000000000000000000000000000000000000000000000000000000000000000000000000000000000000000000000000000000000000000000000000000000000000000009DA93DD0D36AD3C086204109BF7974780840EA9
00000000000000000000000000000000000000000000000000000000000000000000000000000000000000000000000000000000000000000000000000000000000000000000000000000000000000000000000000000000000000000000000000000000000000000000000005DDA0A98FDDA6C20E2002F9A7BFBCC2125DAB71
000000000000000000000000000000000000000000000000000000000000000000000000000000000000000000000000000000000000000000000000000000000000000000000000000000000000000000000000000000000000000000000000000000000000000000000000843B961B0071AD3C0A180BE5A602ABDC826C0961
00000000000000000000000000000000000000000000000000000000000000000000000000000000000000000000000000000000000000000000000000000000000000000000000000000000000000000000000000000000000000000000000000000000000000000000000018E6931A81AAB04509A60A0DACD8C91480CAA705
000000000000000000000000000000000000000000000000000000000000000000000000000000000000000000000000000000000000000000000000000000000000000000000000000000000000000000000000000000000000000000000000000000000000000000000000068995B2031098F09B81B0C30277080D9ADC8BF9
000000000000000000000000000000000000000000000000000000000000000000000000000000000000000000000000000000000000000000000000000000000000000000000000000000000000000000000000000000000000000000000000000000000000000000000000B06508259B48812DA1C8019C076686C9961F1200
000000000000000000000000000000000000000000000000000000000000000000000000000000000000000000000000000000000000000000000000000000000000000000000000000000000000000000000000000000000000000000000000000000000000000000000000BF580EC4A2270DFAC480AE211016059B07C9B739
00000000000000000000000000000000000000000000000000000000000000000000000000000000000000000000000000000000000000000000000000000000000000000000000000000000000000000000000000000000000000000000000000000000000000000000000008A3C570B1EAB15F0B220B29B9769DAB82030FCD
0000000000000000000000000000000000000000000000000000000000000000000000000000000000000000000000000000000000000000000000000000000000000000000000000000000000000000000000000000000000000000000000000000000000000000000000000B5AAB6290DEBA6A01E30C4F8BDEA06004740FCF
000000000000000000000000000000000000000000000000000000000000000000000000000000000000000000000000000000000000000000000000000000000000000000000000000000000000000000000000000000000000000000000000000000000000000000000000BDDA196F8D9104B5B298043E212105CA9B018879
000000000000000000000000000000000000000000000000000000000000000000000000000000000000000000000000000000000000000000000000000000000000000000000000000000000000000000000000000000000000000000000000000000000000000000000000036886E30C0D8E669F90ACEF08E609979D808B07
000000000000000000000000000000000000000000000000000000000000000000000000000000000000000000000000000000000000000000000000000000000000000000000000000000000000000000000000000000000000000000000000000000000000000000000000B263B7169B5884A3AB8081EF8BA10C6999722A83
0000000000000000000000000000000000000000000000000000000000000000000000000000000000000000000000000000000000000000000000000000000000000000000000000000000000000000000000000000000000000000000000000000000000000000000000000C71D247A20FA2C806B1A71E0634826E8EDAA5D7
000000000000000000000000000000000000000000000000000000000000000000000000000000000000000000000000000000000000000000000000000000000000000000000000000000000000000000000000000000000000000000000000000000000000000000000000AC4D09F58E598DC0CBF690A105028720928FA678
000000000000000000000000000000000000000000000000000000000000000000000000000000000000000000000000000000000000000000000000000000000000000000000000000000000000000000000000000000000000000000000000000000000000000000000000B005A4C92E6AB92E979A990296999155B512B8D1
00000000000000000000000000000000000000000000000000000000000000000000000000000000000000000000000000000000000000000000000000000000000000000000000000000000000000000000000000000000000000000000000000000000000000000000000003748D679A2BA1D2026A094C82419FF306549CEF
0000000000000000000000000000000000000000000000000000000000000000000000000000000000000000000000000000000000000000000000000000000000000000000000000000000000000000000000000000000000000000000000000000000000000000000000000552B2A502C98DF50CE9817497C58735134D0E41
0000000000000000000000000000000000000000000000000000000000000000000000000000000000000000000000000000000000000000000000000000000000000000000000000000000000000000000000000000000000000000000000000000000000000000000000000E588C370817ABA2045D9BA4002B8A2F03C8A01F
00000000000000000000000000000000000000000000000000000000000000000000000000000000000000000000000000000000000000000000000000000000000000000000000000000000000000000000000000000000000000000000000000000000000000000000000013C9B0AF8BFDBEFA825901B9B5508F0106E10991
0000000000000000000000000000000000000000000000000000000000000000000000000000000000000000000000000000000000000000000000000000000000000000000000000000000000000000000000000000000000000000000000000000000000000000000000009649D6A89442887789580A179C0886A20061096C
0000000000000000000000000000000000000000000000000000000000000000000000000000000000000000000000000000000000000000000000000000000000000000000000000000000000000000000000000000000000000000000000000000000000000000000000000BEA11508B9B93AB0B16032804B49CDB05D8A8B8
000000000000000000000000000000000000000000000000000000000000000000000000000000000000000000000000000000000000000000000000000000000000000000000000000000000000000000000000000000000000000000000000000000000000000000000000C403FFFF4D90B7AC869A1A0E457DFFFFDCDCFFFF
00000000000000000000000000000000000000000000000000000000000000000000000000000000000000000000000000000000000000000000000000000000000000000000000000000000000000000000000000000000000000000000000000000000000000000000000088C1C311857D9A1D0F6C0F4CB223886D13A697C9
000000000000000000000000000000000000000000000000000000000000000000000000000000000000000000000000000000000000000000000000000000000000000000000000000000000000000000000000000000000000000000000000000000000000000000000000A136223004AE13D4864BA5A9141400E1998E9F0E
0000000000000000000000000000000000000000000000000000000000000000000000000000000000000000000000000000000000000000000000000000000000000000000000000000000000000000000000000000000000000000000000000000000000000000000000003C45EF39574D0937A664FFFF8381DCDFFFFFFCD8
0000000000000000000000000000000000000000000000000000000000000000000000000000000000000000000000000000000000000000000000000000000000000000000000000000000000000000000000000000000000000000000000000000000000000000000000000B3804EC0AB5842A88E9AABD03778B3B8C379200
0000000000000000000000000000000000000000000000000000000000000000000000000000000000000000000000000000000000000000000000000000000000000000000000000000000000000000000000000000000000000000000000000000000000000000000000002139ADA7C4B40F47BCCC91F29D3501C1CA5892FB
